node {
  name: "in_0"
  op: "Const"
  attr {
    key: "dtype"
    value {
      type: DT_FLOAT
    }
  }
  attr {
    key: "value"
    value {
      tensor {
        dtype: DT_FLOAT
        tensor_shape {
          dim {
            size: 10
          }
          dim {
            size: 7
          }
          dim {
            size: 5
          }
        }
        tensor_content: "\000\000\200?\000\000\200?\000\000\200?\000\000\200?\000\000\200?\000\000\200?\000\000\200?\000\000\200?\000\000\200?\000\000\200?\000\000\200?\000\000\200?\000\000\200?\000\000\200?\000\000\200?\000\000\200?\000\000\200?\000\000\200?\000\000\200?\000\000\200?\000\000\200?\000\000\200?\000\000\200?\000\000\200?\000\000\200?\000\000\200?\000\000\200?\000\000\200?\000\000\200?\000\000\200?\000\000\200?\000\000\200?\000\000\200?\000\000\200?\000\000\200?\000\000\200?\000\000\200?\000\000\200?\000\000\200?\000\000\200?\000\000\200?\000\000\200?\000\000\200?\000\000\200?\000\000\200?\000\000\200?\000\000\200?\000\000\200?\000\000\200?\000\000\200?\000\000\200?\000\000\200?\000\000\200?\000\000\200?\000\000\200?\000\000\200?\000\000\200?\000\000\200?\000\000\200?\000\000\200?\000\000\200?\000\000\200?\000\000\200?\000\000\200?\000\000\200?\000\000\200?\000\000\200?\000\000\200?\000\000\200?\000\000\200?\000\000\200?\000\000\200?\000\000\200?\000\000\200?\000\000\200?\000\000\200?\000\000\200?\000\000\200?\000\000\200?\000\000\200?\000\000\200?\000\000\200?\000\000\200?\000\000\200?\000\000\200?\000\000\200?\000\000\200?\000\000\200?\000\000\200?\000\000\200?\000\000\200?\000\000\200?\000\000\200?\000\000\200?\000\000\200?\000\000\200?\000\000\200?\000\000\200?\000\000\200?\000\000\200?\000\000\200?\000\000\200?\000\000\200?\000\000\200?\000\000\200?\000\000\200?\000\000\200?\000\000\200?\000\000\200?\000\000\200?\000\000\200?\000\000\200?\000\000\200?\000\000\200?\000\000\200?\000\000\200?\000\000\200?\000\000\200?\000\000\200?\000\000\200?\000\000\200?\000\000\200?\000\000\200?\000\000\200?\000\000\200?\000\000\200?\000\000\200?\000\000\200?\000\000\200?\000\000\200?\000\000\200?\000\000\200?\000\000\200?\000\000\200?\000\000\200?\000\000\200?\000\000\200?\000\000\200?\000\000\200?\000\000\200?\000\000\200?\000\000\200?\000\000\200?\000\000\200?\000\000\200?\000\000\200?\000\000\200?\000\000\200?\000\000\200?\000\000\200?\000\000\200?\000\000\200?\000\000\200?\000\000\200?\000\000\200?\000\000\200?\000\000\200?\000\000\200?\000\000\200?\000\000\200?\000\000\200?\000\000\200?\000\000\200?\000\000\200?\000\000\200?\000\000\200?\000\000\200?\000\000\200?\000\000\200?\000\000\200?\000\000\200?\000\000\200?\000\000\200?\000\000\200?\000\000\200?\000\000\200?\000\000\200?\000\000\200?\000\000\200?\000\000\200?\000\000\200?\000\000\200?\000\000\200?\000\000\200?\000\000\200?\000\000\200?\000\000\200?\000\000\200?\000\000\200?\000\000\200?\000\000\200?\000\000\200?\000\000\200?\000\000\200?\000\000\200?\000\000\200?\000\000\200?\000\000\200?\000\000\200?\000\000\200?\000\000\200?\000\000\200?\000\000\200?\000\000\200?\000\000\200?\000\000\200?\000\000\200?\000\000\200?\000\000\200?\000\000\200?\000\000\200?\000\000\200?\000\000\200?\000\000\200?\000\000\200?\000\000\200?\000\000\200?\000\000\200?\000\000\200?\000\000\200?\000\000\200?\000\000\200?\000\000\200?\000\000\200?\000\000\200?\000\000\200?\000\000\200?\000\000\200?\000\000\200?\000\000\200?\000\000\200?\000\000\200?\000\000\200?\000\000\200?\000\000\200?\000\000\200?\000\000\200?\000\000\200?\000\000\200?\000\000\200?\000\000\200?\000\000\200?\000\000\200?\000\000\200?\000\000\200?\000\000\200?\000\000\200?\000\000\200?\000\000\200?\000\000\200?\000\000\200?\000\000\200?\000\000\200?\000\000\200?\000\000\200?\000\000\200?\000\000\200?\000\000\200?\000\000\200?\000\000\200?\000\000\200?\000\000\200?\000\000\200?\000\000\200?\000\000\200?\000\000\200?\000\000\200?\000\000\200?\000\000\200?\000\000\200?\000\000\200?\000\000\200?\000\000\200?\000\000\200?\000\000\200?\000\000\200?\000\000\200?\000\000\200?\000\000\200?\000\000\200?\000\000\200?\000\000\200?\000\000\200?\000\000\200?\000\000\200?\000\000\200?\000\000\200?\000\000\200?\000\000\200?\000\000\200?\000\000\200?\000\000\200?\000\000\200?\000\000\200?\000\000\200?\000\000\200?\000\000\200?\000\000\200?\000\000\200?\000\000\200?\000\000\200?\000\000\200?\000\000\200?\000\000\200?\000\000\200?\000\000\200?\000\000\200?\000\000\200?\000\000\200?\000\000\200?\000\000\200?\000\000\200?\000\000\200?\000\000\200?\000\000\200?\000\000\200?\000\000\200?\000\000\200?\000\000\200?\000\000\200?\000\000\200?\000\000\200?\000\000\200?\000\000\200?\000\000\200?\000\000\200?\000\000\200?\000\000\200?\000\000\200?\000\000\200?\000\000\200?\000\000\200?\000\000\200?\000\000\200?\000\000\200?\000\000\200?\000\000\200?\000\000\200?\000\000\200?\000\000\200?\000\000\200?\000\000\200?\000\000\200?\000\000\200?\000\000\200?\000\000\200?\000\000\200?\000\000\200?\000\000\200?\000\000\200?"
      }
    }
  }
}
node {
  name: "in_0/read"
  op: "Identity"
  input: "in_0"
  attr {
    key: "T"
    value {
      type: DT_FLOAT
    }
  }
  attr {
    key: "_class"
    value {
      list {
        s: "loc:@in_0"
      }
    }
  }
}
node {
  name: "in_1"
  op: "Const"
  attr {
    key: "dtype"
    value {
      type: DT_INT32
    }
  }
  attr {
    key: "value"
    value {
      tensor {
        dtype: DT_INT32
        tensor_shape {
          dim {
            size: 4
          }
        }
        tensor_content: "\010\000\000\000\001\000\000\000\004\000\000\000\007\000\000\000"
      }
    }
  }
}
node {
  name: "in_1/read"
  op: "Identity"
  input: "in_1"
  attr {
    key: "T"
    value {
      type: DT_INT32
    }
  }
  attr {
    key: "_class"
    value {
      list {
        s: "loc:@in_1"
      }
    }
  }
}
node {
  name: "Reshape/shape"
  op: "Const"
  attr {
    key: "dtype"
    value {
      type: DT_INT32
    }
  }
  attr {
    key: "value"
    value {
      tensor {
        dtype: DT_INT32
        tensor_shape {
          dim {
            size: 2
          }
        }
        tensor_content: "\004\000\000\000\001\000\000\000"
      }
    }
  }
}
node {
  name: "Reshape"
  op: "Reshape"
  input: "in_1/read"
  input: "Reshape/shape"
  attr {
    key: "T"
    value {
      type: DT_INT32
    }
  }
  attr {
    key: "Tshape"
    value {
      type: DT_INT32
    }
  }
}
node {
  name: "in_2"
  op: "Const"
  attr {
    key: "dtype"
    value {
      type: DT_FLOAT
    }
  }
  attr {
    key: "value"
    value {
      tensor {
        dtype: DT_FLOAT
        tensor_shape {
          dim {
            size: 4
          }
          dim {
            size: 7
          }
          dim {
            size: 5
          }
        }
        tensor_content: "\006\220E?\202\226m?\346\013|?\330\262\367>\226\260$?@\243\032?\236n&?\244\333B?\334\260B?\360\035\312>p\002s?\322*\\?`\243I?\330\374d?\004w\355>\27077?h+\350>t7N?\312Ru?\262\205\007?*kU?\000\231\'<\370l\314>`\327\033>\270\034\266>\350\301$>\2145\366>\030\033$>\240\024\321>\240\341n?\360\352\232=&\265\022?bFn?\314j\365>\350O\262>\002\333t?\240\313\204=\364{\256>\260\322\334=\300\244\376=\350\212T?\374E`?(\005\266>`\315\322=\324\271\250>p H><ef?P?\250>0\313\216><\220\344>\322dw?H\322\224>\260\377s?\340&\242>\022\220y?0R\002>\020Y\003?<J\262>\220\270\273>\254o\344>\372\245M? \352%>\366cd?\024\241A?\354\013\354>(^Z>\244\352\342>\230\022)?4\206M?V^r?\004\352\247> (#?\2261m?t?\306>\200\327\004=\240\252l?FSu?,\2654?f\337\001?,\304T?\022\3171?\034\240\375>\300O\010=D)N?\200_\177<\234\261\021?0\010\007>t\017\240>\256\214x?\310\243A>(.\256>\244e\037?\026}D?to\227>\274\371\330>\312\027\n?,}\327>\3025^?\250\215n?\356*m?\300\004\250<\264\370n?\006/\026?*\311B?\026\326!?\010\'E>\260\375\362=\202\372H?V\2640?\360\267\242=\302Ks?(O\275>\244*\213>\2364K?V\330\005?\250zK>\000i+>\000k\005>\260I\233>\200\t\236>\\\211Z?(\202\002> \354\037>\266\261P?\320\0328>\360r\363>\260\212\305=PX\216>P{j?\372\365U?\340\201.>f\rS?\330n\361>:\010t?\214\372Q?X\373Y?\n\254]?\014\350\246>\240\237\234>`\324\350>"
      }
    }
  }
}
node {
  name: "in_2/read"
  op: "Identity"
  input: "in_2"
  attr {
    key: "T"
    value {
      type: DT_FLOAT
    }
  }
  attr {
    key: "_class"
    value {
      list {
        s: "loc:@in_2"
      }
    }
  }
}
node {
  name: "Variable"
  op: "Const"
  attr {
    key: "dtype"
    value {
      type: DT_FLOAT
    }
  }
  attr {
    key: "value"
    value {
      tensor {
        dtype: DT_FLOAT
        tensor_shape {
          dim {
            size: 10
          }
          dim {
            size: 7
          }
          dim {
            size: 5
          }
        }
        tensor_content: "\000\000\200?\000\000\200?\000\000\200?\000\000\200?\000\000\200?\000\000\200?\000\000\200?\000\000\200?\000\000\200?\000\000\200?\000\000\200?\000\000\200?\000\000\200?\000\000\200?\000\000\200?\000\000\200?\000\000\200?\000\000\200?\000\000\200?\000\000\200?\000\000\200?\000\000\200?\000\000\200?\000\000\200?\000\000\200?\000\000\200?\000\000\200?\000\000\200?\000\000\200?\000\000\200?\000\000\200?\000\000\200?\000\000\200?\000\000\200?\000\000\200?\002\333t?\240\313\204=\364{\256>\260\322\334=\300\244\376=\350\212T?\374E`?(\005\266>`\315\322=\324\271\250>p H><ef?P?\250>0\313\216><\220\344>\322dw?H\322\224>\260\377s?\340&\242>\022\220y?0R\002>\020Y\003?<J\262>\220\270\273>\254o\344>\372\245M? \352%>\366cd?\024\241A?\354\013\354>(^Z>\244\352\342>\230\022)?4\206M?V^r?\000\000\200?\000\000\200?\000\000\200?\000\000\200?\000\000\200?\000\000\200?\000\000\200?\000\000\200?\000\000\200?\000\000\200?\000\000\200?\000\000\200?\000\000\200?\000\000\200?\000\000\200?\000\000\200?\000\000\200?\000\000\200?\000\000\200?\000\000\200?\000\000\200?\000\000\200?\000\000\200?\000\000\200?\000\000\200?\000\000\200?\000\000\200?\000\000\200?\000\000\200?\000\000\200?\000\000\200?\000\000\200?\000\000\200?\000\000\200?\000\000\200?\000\000\200?\000\000\200?\000\000\200?\000\000\200?\000\000\200?\000\000\200?\000\000\200?\000\000\200?\000\000\200?\000\000\200?\000\000\200?\000\000\200?\000\000\200?\000\000\200?\000\000\200?\000\000\200?\000\000\200?\000\000\200?\000\000\200?\000\000\200?\000\000\200?\000\000\200?\000\000\200?\000\000\200?\000\000\200?\000\000\200?\000\000\200?\000\000\200?\000\000\200?\000\000\200?\000\000\200?\000\000\200?\000\000\200?\000\000\200?\000\000\200?\004\352\247> (#?\2261m?t?\306>\200\327\004=\240\252l?FSu?,\2654?f\337\001?,\304T?\022\3171?\034\240\375>\300O\010=D)N?\200_\177<\234\261\021?0\010\007>t\017\240>\256\214x?\310\243A>(.\256>\244e\037?\026}D?to\227>\274\371\330>\312\027\n?,}\327>\3025^?\250\215n?\356*m?\300\004\250<\264\370n?\006/\026?*\311B?\026\326!?\000\000\200?\000\000\200?\000\000\200?\000\000\200?\000\000\200?\000\000\200?\000\000\200?\000\000\200?\000\000\200?\000\000\200?\000\000\200?\000\000\200?\000\000\200?\000\000\200?\000\000\200?\000\000\200?\000\000\200?\000\000\200?\000\000\200?\000\000\200?\000\000\200?\000\000\200?\000\000\200?\000\000\200?\000\000\200?\000\000\200?\000\000\200?\000\000\200?\000\000\200?\000\000\200?\000\000\200?\000\000\200?\000\000\200?\000\000\200?\000\000\200?\000\000\200?\000\000\200?\000\000\200?\000\000\200?\000\000\200?\000\000\200?\000\000\200?\000\000\200?\000\000\200?\000\000\200?\000\000\200?\000\000\200?\000\000\200?\000\000\200?\000\000\200?\000\000\200?\000\000\200?\000\000\200?\000\000\200?\000\000\200?\000\000\200?\000\000\200?\000\000\200?\000\000\200?\000\000\200?\000\000\200?\000\000\200?\000\000\200?\000\000\200?\000\000\200?\000\000\200?\000\000\200?\000\000\200?\000\000\200?\000\000\200?\010\'E>\260\375\362=\202\372H?V\2640?\360\267\242=\302Ks?(O\275>\244*\213>\2364K?V\330\005?\250zK>\000i+>\000k\005>\260I\233>\200\t\236>\\\211Z?(\202\002> \354\037>\266\261P?\320\0328>\360r\363>\260\212\305=PX\216>P{j?\372\365U?\340\201.>f\rS?\330n\361>:\010t?\214\372Q?X\373Y?\n\254]?\014\350\246>\240\237\234>`\324\350>\006\220E?\202\226m?\346\013|?\330\262\367>\226\260$?@\243\032?\236n&?\244\333B?\334\260B?\360\035\312>p\002s?\322*\\?`\243I?\330\374d?\004w\355>\27077?h+\350>t7N?\312Ru?\262\205\007?*kU?\000\231\'<\370l\314>`\327\033>\270\034\266>\350\301$>\2145\366>\030\033$>\240\024\321>\240\341n?\360\352\232=&\265\022?bFn?\314j\365>\350O\262>\000\000\200?\000\000\200?\000\000\200?\000\000\200?\000\000\200?\000\000\200?\000\000\200?\000\000\200?\000\000\200?\000\000\200?\000\000\200?\000\000\200?\000\000\200?\000\000\200?\000\000\200?\000\000\200?\000\000\200?\000\000\200?\000\000\200?\000\000\200?\000\000\200?\000\000\200?\000\000\200?\000\000\200?\000\000\200?\000\000\200?\000\000\200?\000\000\200?\000\000\200?\000\000\200?\000\000\200?\000\000\200?\000\000\200?\000\000\200?\000\000\200?"
      }
    }
  }
}
node {
  name: "Assign"
  op: "Assign"
  input: "Variable"
  input: "in_0/read"
  attr {
    key: "T"
    value {
      type: DT_FLOAT
    }
  }
  attr {
    key: "_class"
    value {
      list {
        s: "loc:@Variable"
      }
    }
  }
  attr {
    key: "use_locking"
    value {
      b: true
    }
  }
  attr {
    key: "validate_shape"
    value {
      b: true
    }
  }
}
node {
  name: "ScatterNdUpdate"
  op: "ScatterNdUpdate"
  input: "Assign"
  input: "Reshape"
  input: "in_2/read"
  attr {
    key: "T"
    value {
      type: DT_FLOAT
    }
  }
  attr {
    key: "Tindices"
    value {
      type: DT_INT32
    }
  }
  attr {
    key: "_class"
    value {
      list {
        s: "loc:@Variable"
      }
    }
  }
  attr {
    key: "use_locking"
    value {
      b: false
    }
  }
}
library {
}
