node {
  name: "in_0"
  op: "Const"
  attr {
    key: "dtype"
    value {
      type: DT_FLOAT
    }
  }
  attr {
    key: "value"
    value {
      tensor {
        dtype: DT_FLOAT
        tensor_shape {
          dim {
            size: 10
          }
          dim {
            size: 7
          }
          dim {
            size: 5
          }
        }
        tensor_content: "\000\000\200?\000\000\200?\000\000\200?\000\000\200?\000\000\200?\000\000\200?\000\000\200?\000\000\200?\000\000\200?\000\000\200?\000\000\200?\000\000\200?\000\000\200?\000\000\200?\000\000\200?\000\000\200?\000\000\200?\000\000\200?\000\000\200?\000\000\200?\000\000\200?\000\000\200?\000\000\200?\000\000\200?\000\000\200?\000\000\200?\000\000\200?\000\000\200?\000\000\200?\000\000\200?\000\000\200?\000\000\200?\000\000\200?\000\000\200?\000\000\200?\000\000\200?\000\000\200?\000\000\200?\000\000\200?\000\000\200?\000\000\200?\000\000\200?\000\000\200?\000\000\200?\000\000\200?\000\000\200?\000\000\200?\000\000\200?\000\000\200?\000\000\200?\000\000\200?\000\000\200?\000\000\200?\000\000\200?\000\000\200?\000\000\200?\000\000\200?\000\000\200?\000\000\200?\000\000\200?\000\000\200?\000\000\200?\000\000\200?\000\000\200?\000\000\200?\000\000\200?\000\000\200?\000\000\200?\000\000\200?\000\000\200?\000\000\200?\000\000\200?\000\000\200?\000\000\200?\000\000\200?\000\000\200?\000\000\200?\000\000\200?\000\000\200?\000\000\200?\000\000\200?\000\000\200?\000\000\200?\000\000\200?\000\000\200?\000\000\200?\000\000\200?\000\000\200?\000\000\200?\000\000\200?\000\000\200?\000\000\200?\000\000\200?\000\000\200?\000\000\200?\000\000\200?\000\000\200?\000\000\200?\000\000\200?\000\000\200?\000\000\200?\000\000\200?\000\000\200?\000\000\200?\000\000\200?\000\000\200?\000\000\200?\000\000\200?\000\000\200?\000\000\200?\000\000\200?\000\000\200?\000\000\200?\000\000\200?\000\000\200?\000\000\200?\000\000\200?\000\000\200?\000\000\200?\000\000\200?\000\000\200?\000\000\200?\000\000\200?\000\000\200?\000\000\200?\000\000\200?\000\000\200?\000\000\200?\000\000\200?\000\000\200?\000\000\200?\000\000\200?\000\000\200?\000\000\200?\000\000\200?\000\000\200?\000\000\200?\000\000\200?\000\000\200?\000\000\200?\000\000\200?\000\000\200?\000\000\200?\000\000\200?\000\000\200?\000\000\200?\000\000\200?\000\000\200?\000\000\200?\000\000\200?\000\000\200?\000\000\200?\000\000\200?\000\000\200?\000\000\200?\000\000\200?\000\000\200?\000\000\200?\000\000\200?\000\000\200?\000\000\200?\000\000\200?\000\000\200?\000\000\200?\000\000\200?\000\000\200?\000\000\200?\000\000\200?\000\000\200?\000\000\200?\000\000\200?\000\000\200?\000\000\200?\000\000\200?\000\000\200?\000\000\200?\000\000\200?\000\000\200?\000\000\200?\000\000\200?\000\000\200?\000\000\200?\000\000\200?\000\000\200?\000\000\200?\000\000\200?\000\000\200?\000\000\200?\000\000\200?\000\000\200?\000\000\200?\000\000\200?\000\000\200?\000\000\200?\000\000\200?\000\000\200?\000\000\200?\000\000\200?\000\000\200?\000\000\200?\000\000\200?\000\000\200?\000\000\200?\000\000\200?\000\000\200?\000\000\200?\000\000\200?\000\000\200?\000\000\200?\000\000\200?\000\000\200?\000\000\200?\000\000\200?\000\000\200?\000\000\200?\000\000\200?\000\000\200?\000\000\200?\000\000\200?\000\000\200?\000\000\200?\000\000\200?\000\000\200?\000\000\200?\000\000\200?\000\000\200?\000\000\200?\000\000\200?\000\000\200?\000\000\200?\000\000\200?\000\000\200?\000\000\200?\000\000\200?\000\000\200?\000\000\200?\000\000\200?\000\000\200?\000\000\200?\000\000\200?\000\000\200?\000\000\200?\000\000\200?\000\000\200?\000\000\200?\000\000\200?\000\000\200?\000\000\200?\000\000\200?\000\000\200?\000\000\200?\000\000\200?\000\000\200?\000\000\200?\000\000\200?\000\000\200?\000\000\200?\000\000\200?\000\000\200?\000\000\200?\000\000\200?\000\000\200?\000\000\200?\000\000\200?\000\000\200?\000\000\200?\000\000\200?\000\000\200?\000\000\200?\000\000\200?\000\000\200?\000\000\200?\000\000\200?\000\000\200?\000\000\200?\000\000\200?\000\000\200?\000\000\200?\000\000\200?\000\000\200?\000\000\200?\000\000\200?\000\000\200?\000\000\200?\000\000\200?\000\000\200?\000\000\200?\000\000\200?\000\000\200?\000\000\200?\000\000\200?\000\000\200?\000\000\200?\000\000\200?\000\000\200?\000\000\200?\000\000\200?\000\000\200?\000\000\200?\000\000\200?\000\000\200?\000\000\200?\000\000\200?\000\000\200?\000\000\200?\000\000\200?\000\000\200?\000\000\200?\000\000\200?\000\000\200?\000\000\200?\000\000\200?\000\000\200?\000\000\200?\000\000\200?\000\000\200?\000\000\200?\000\000\200?\000\000\200?\000\000\200?\000\000\200?\000\000\200?\000\000\200?\000\000\200?\000\000\200?\000\000\200?\000\000\200?\000\000\200?\000\000\200?\000\000\200?\000\000\200?\000\000\200?\000\000\200?\000\000\200?\000\000\200?\000\000\200?\000\000\200?\000\000\200?\000\000\200?\000\000\200?\000\000\200?\000\000\200?\000\000\200?\000\000\200?\000\000\200?\000\000\200?\000\000\200?\000\000\200?\000\000\200?\000\000\200?"
      }
    }
  }
}
node {
  name: "in_0/read"
  op: "Identity"
  input: "in_0"
  attr {
    key: "T"
    value {
      type: DT_FLOAT
    }
  }
  attr {
    key: "_class"
    value {
      list {
        s: "loc:@in_0"
      }
    }
  }
}
node {
  name: "in_1"
  op: "Const"
  attr {
    key: "dtype"
    value {
      type: DT_INT32
    }
  }
  attr {
    key: "value"
    value {
      tensor {
        dtype: DT_INT32
        tensor_shape {
          dim {
            size: 4
          }
        }
        tensor_content: "\005\000\000\000\001\000\000\000\003\000\000\000\t\000\000\000"
      }
    }
  }
}
node {
  name: "in_1/read"
  op: "Identity"
  input: "in_1"
  attr {
    key: "T"
    value {
      type: DT_INT32
    }
  }
  attr {
    key: "_class"
    value {
      list {
        s: "loc:@in_1"
      }
    }
  }
}
node {
  name: "Reshape/shape"
  op: "Const"
  attr {
    key: "dtype"
    value {
      type: DT_INT32
    }
  }
  attr {
    key: "value"
    value {
      tensor {
        dtype: DT_INT32
        tensor_shape {
          dim {
            size: 2
          }
        }
        tensor_content: "\004\000\000\000\001\000\000\000"
      }
    }
  }
}
node {
  name: "Reshape"
  op: "Reshape"
  input: "in_1/read"
  input: "Reshape/shape"
  attr {
    key: "T"
    value {
      type: DT_INT32
    }
  }
  attr {
    key: "Tshape"
    value {
      type: DT_INT32
    }
  }
}
node {
  name: "in_2"
  op: "Const"
  attr {
    key: "dtype"
    value {
      type: DT_FLOAT
    }
  }
  attr {
    key: "value"
    value {
      tensor {
        dtype: DT_FLOAT
        tensor_shape {
          dim {
            size: 4
          }
          dim {
            size: 7
          }
          dim {
            size: 5
          }
        }
        tensor_content: "\006\220E?\202\226m?\346\013|?\330\262\367>\226\260$?@\243\032?\236n&?\244\333B?\334\260B?\360\035\312>p\002s?\322*\\?`\243I?\330\374d?\004w\355>\27077?h+\350>t7N?\312Ru?\262\205\007?*kU?\000\231\'<\370l\314>`\327\033>\270\034\266>\350\301$>\2145\366>\030\033$>\240\024\321>\240\341n?\360\352\232=&\265\022?bFn?\314j\365>\350O\262>\002\333t?\240\313\204=\364{\256>\260\322\334=\300\244\376=\350\212T?\374E`?(\005\266>`\315\322=\324\271\250>p H><ef?P?\250>0\313\216><\220\344>\322dw?H\322\224>\260\377s?\340&\242>\022\220y?0R\002>\020Y\003?<J\262>\220\270\273>\254o\344>\372\245M? \352%>\366cd?\024\241A?\354\013\354>(^Z>\244\352\342>\230\022)?4\206M?V^r?\004\352\247> (#?\2261m?t?\306>\200\327\004=\240\252l?FSu?,\2654?f\337\001?,\304T?\022\3171?\034\240\375>\300O\010=D)N?\200_\177<\234\261\021?0\010\007>t\017\240>\256\214x?\310\243A>(.\256>\244e\037?\026}D?to\227>\274\371\330>\312\027\n?,}\327>\3025^?\250\215n?\356*m?\300\004\250<\264\370n?\006/\026?*\311B?\026\326!?\010\'E>\260\375\362=\202\372H?V\2640?\360\267\242=\302Ks?(O\275>\244*\213>\2364K?V\330\005?\250zK>\000i+>\000k\005>\260I\233>\200\t\236>\\\211Z?(\202\002> \354\037>\266\261P?\320\0328>\360r\363>\260\212\305=PX\216>P{j?\372\365U?\340\201.>f\rS?\330n\361>:\010t?\214\372Q?X\373Y?\n\254]?\014\350\246>\240\237\234>`\324\350>"
      }
    }
  }
}
node {
  name: "in_2/read"
  op: "Identity"
  input: "in_2"
  attr {
    key: "T"
    value {
      type: DT_FLOAT
    }
  }
  attr {
    key: "_class"
    value {
      list {
        s: "loc:@in_2"
      }
    }
  }
}
node {
  name: "Variable"
  op: "Const"
  attr {
    key: "dtype"
    value {
      type: DT_FLOAT
    }
  }
  attr {
    key: "value"
    value {
      tensor {
        dtype: DT_FLOAT
        tensor_shape {
          dim {
            size: 10
          }
          dim {
            size: 7
          }
          dim {
            size: 5
          }
        }
        tensor_content: "\000\000\200?\000\000\200?\000\000\200?\000\000\200?\000\000\200?\000\000\200?\000\000\200?\000\000\200?\000\000\200?\000\000\200?\000\000\200?\000\000\200?\000\000\200?\000\000\200?\000\000\200?\000\000\200?\000\000\200?\000\000\200?\000\000\200?\000\000\200?\000\000\200?\000\000\200?\000\000\200?\000\000\200?\000\000\200?\000\000\200?\000\000\200?\000\000\200?\000\000\200?\000\000\200?\000\000\200?\000\000\200?\000\000\200?\000\000\200?\000\000\200?\201m\372?\272L\210?\375\236\253?+\315\215?L\352\217?tE\352?\376\"\360?J\201\255?\326,\215?u.\252?\016\004\231?\2362\363?\324\017\252?\314\262\243?\017$\271?i\262\373?\2224\245?\330\377\371?\270\211\250?\t\310\374?FJ\220?\210\254\301?\217\222\254?$\356\256?\353\033\271?\375\322\346?D\275\224?\3731\362?\212\320\340?\373\002\273?\305K\233?\251\272\270?L\211\324?\032\303\346?+/\371?\000\000\200?\000\000\200?\000\000\200?\000\000\200?\000\000\200?\000\000\200?\000\000\200?\000\000\200?\000\000\200?\000\000\200?\000\000\200?\000\000\200?\000\000\200?\000\000\200?\000\000\200?\000\000\200?\000\000\200?\000\000\200?\000\000\200?\000\000\200?\000\000\200?\000\000\200?\000\000\200?\000\000\200?\000\000\200?\000\000\200?\000\000\200?\000\000\200?\000\000\200?\000\000\200?\000\000\200?\000\000\200?\000\000\200?\000\000\200?\000\000\200?\201\372\251?\020\224\321?\313\230\366?\335\217\261?\274&\204?PU\366?\243\251\372?\226Z\332?\263\357\300?\026b\352?\211\347\330?\007h\277?~B\204?\242\024\347?\277\376\201?\316\330\310?\006\341\220?\335\003\250?WF\374?y4\230?\212\213\253?\322\262\317?\213>\342?\335\333\245?o>\266?\345\013\305?K\337\265?\341\032\357?\324F\367?w\225\366?\023\240\202?Z|\367?\203\027\313?\225d\341?\013\353\320?\000\000\200?\000\000\200?\000\000\200?\000\000\200?\000\000\200?\000\000\200?\000\000\200?\000\000\200?\000\000\200?\000\000\200?\000\000\200?\000\000\200?\000\000\200?\000\000\200?\000\000\200?\000\000\200?\000\000\200?\000\000\200?\000\000\200?\000\000\200?\000\000\200?\000\000\200?\000\000\200?\000\000\200?\000\000\200?\000\000\200?\000\000\200?\000\000\200?\000\000\200?\000\000\200?\000\000\200?\000\000\200?\000\000\200?\000\000\200?\000\000\200?\003\310\342?A\313\366?\363\005\376?\266\354\275?KX\322?\240Q\315?O7\323?\322m\341?nX\341?|\207\262?8\201\371?i\025\356?\260\321\344?l~\362?\301]\273?\334\233\333?\332\n\272?\272\033\347?e\251\372?\331\302\303?\225\265\352?2O\201?>\033\263?\354z\223?.\207\255?=\230\224?c\215\275?c\203\224?(E\264?\320p\367?\257\256\211?\223Z\311?1#\367?\263Z\275?\372\223\254?\000\000\200?\000\000\200?\000\000\200?\000\000\200?\000\000\200?\000\000\200?\000\000\200?\000\000\200?\000\000\200?\000\000\200?\000\000\200?\000\000\200?\000\000\200?\000\000\200?\000\000\200?\000\000\200?\000\000\200?\000\000\200?\000\000\200?\000\000\200?\000\000\200?\000\000\200?\000\000\200?\000\000\200?\000\000\200?\000\000\200?\000\000\200?\000\000\200?\000\000\200?\000\000\200?\000\000\200?\000\000\200?\000\000\200?\000\000\200?\000\000\200?\000\000\200?\000\000\200?\000\000\200?\000\000\200?\000\000\200?\000\000\200?\000\000\200?\000\000\200?\000\000\200?\000\000\200?\000\000\200?\000\000\200?\000\000\200?\000\000\200?\000\000\200?\000\000\200?\000\000\200?\000\000\200?\000\000\200?\000\000\200?\000\000\200?\000\000\200?\000\000\200?\000\000\200?\000\000\200?\000\000\200?\000\000\200?\000\000\200?\000\000\200?\000\000\200?\000\000\200?\000\000\200?\000\000\200?\000\000\200?\000\000\200?\000\000\200?\000\000\200?\000\000\200?\000\000\200?\000\000\200?\000\000\200?\000\000\200?\000\000\200?\000\000\200?\000\000\200?\000\000\200?\000\000\200?\000\000\200?\000\000\200?\000\000\200?\000\000\200?\000\000\200?\000\000\200?\000\000\200?\000\000\200?\000\000\200?\000\000\200?\000\000\200?\000\000\200?\000\000\200?\000\000\200?\000\000\200?\000\000\200?\000\000\200?\000\000\200?\000\000\200?\000\000\200?\000\000\200?\000\000\200?\000\000\200?\341\244\230?\333/\217?A}\344?+Z\330?\177+\212?\341\245\371?\312S\257?\251\312\242?O\232\345?+\354\302?Uo\231? m\225?`\255\220?l\322\246?`\202\247?\256D\355?EP\220?\204\375\223?\333X\350?Z\003\227?\274\334\274?\253X\214?\024\226\243?\250=\365?\375\372\352?<\320\225?\263\206\351?\266[\274?\035\004\372?F\375\350?\254\375\354?\005\326\356?\003\272\251?\350\'\247?\0305\272?"
      }
    }
  }
}
node {
  name: "Assign"
  op: "Assign"
  input: "Variable"
  input: "in_0/read"
  attr {
    key: "T"
    value {
      type: DT_FLOAT
    }
  }
  attr {
    key: "_class"
    value {
      list {
        s: "loc:@Variable"
      }
    }
  }
  attr {
    key: "use_locking"
    value {
      b: true
    }
  }
  attr {
    key: "validate_shape"
    value {
      b: true
    }
  }
}
node {
  name: "ScatterNdAdd"
  op: "ScatterNdAdd"
  input: "Assign"
  input: "Reshape"
  input: "in_2/read"
  attr {
    key: "T"
    value {
      type: DT_FLOAT
    }
  }
  attr {
    key: "Tindices"
    value {
      type: DT_INT32
    }
  }
  attr {
    key: "_class"
    value {
      list {
        s: "loc:@Variable"
      }
    }
  }
  attr {
    key: "use_locking"
    value {
      b: false
    }
  }
}
library {
}
